/**
******************************************************************************
* @file    network_data.c
* @author  AST Embedded Analytics Research Platform
* @date    Tue Feb 21 18:55:01 2023
* @brief   AI Tool Automatic Code Generator for Embedded NN computing
******************************************************************************
* @attention
*
* Copyright (c) 2023 STMicroelectronics.
* All rights reserved.
*
* This software component is licensed by ST under Ultimate Liberty license
* SLA0044, the "License"; You may not use this file except in compliance with
* the License. You may obtain a copy of the License at:
*                             www.st.com/SLA0044
*
******************************************************************************
*/

#include "network_data.h"

ai_handle ai_network_data_weights_get(void)
{
  AI_ALIGNED(32)
  static const ai_u8 s_network_weights[164] = {
    0xf6, 0xe1, 0x22, 0xbd, 0x2d, 0x7a, 0xa6, 0x3e, 0xc3, 0xfa,
    0x46, 0x3e, 0xa2, 0x36, 0xc7, 0x3d, 0x5a, 0x05, 0x03, 0x3e,
    0x00, 0xd8, 0x03, 0x3f, 0xf4, 0x6b, 0x13, 0x3e, 0x5e, 0x29,
    0x04, 0xbf, 0x83, 0xbd, 0xd9, 0x3e, 0xe0, 0x82, 0x11, 0x3f,
    0xd7, 0xe1, 0xc5, 0x3d, 0x06, 0x03, 0x23, 0xbf, 0xba, 0x2e,
    0x31, 0x3f, 0x36, 0xfa, 0x24, 0xbe, 0x0c, 0x05, 0x1c, 0xbf,
    0xc2, 0x22, 0xa4, 0x3e, 0x88, 0x4a, 0x50, 0xbe, 0x84, 0x81,
    0x23, 0xbf, 0x12, 0x39, 0xac, 0x3e, 0xc6, 0x86, 0x5e, 0xbe,
    0x9a, 0x54, 0xab, 0xbd, 0xaa, 0x7d, 0xe6, 0x3d, 0x0a, 0x2d,
    0xbf, 0xbd, 0x3e, 0x04, 0x9c, 0x3d, 0x34, 0x5f, 0xc1, 0xbd,
    0xcd, 0x07, 0x92, 0xbd, 0xaf, 0xa4, 0xba, 0x3d, 0x3a, 0x5a,
    0xc6, 0xbd, 0x00, 0x00, 0x00, 0x00, 0x9b, 0x24, 0x3e,
    0xbd, 0x4b, 0x2b, 0xb9, 0xbd, 0xa0, 0xd0, 0x20, 0x3f,
    0x10, 0x7c, 0xc5, 0xbe, 0x90, 0xc3, 0x1a, 0x3f, 0x68,
    0xa8, 0x0e, 0xbf, 0xb2, 0xba, 0x06, 0xbf, 0x29, 0x71,
    0x47, 0x3f, 0x8f, 0x81, 0xee, 0xbe, 0x6b, 0xaa, 0x15,
    0x3f, 0xbb, 0x22, 0x9e, 0x3b, 0x64, 0x0e, 0xc7, 0x3d  };
  return AI_HANDLE_PTR(s_network_weights);
}
