/**
******************************************************************************
* @file    network_data.c
* @author  AST Embedded Analytics Research Platform
* @date    Fri Feb 24 15:03:17 2023
* @brief   AI Tool Automatic Code Generator for Embedded NN computing
******************************************************************************
* @attention
*
* Copyright (c) 2023 STMicroelectronics.
* All rights reserved.
*
* This software component is licensed by ST under Ultimate Liberty license
* SLA0044, the "License"; You may not use this file except in compliance with
* the License. You may obtain a copy of the License at:
*                             www.st.com/SLA0044
*
******************************************************************************
*/

#include "network_data.h"

ai_handle ai_network_data_weights_get(void)
{
  AI_ALIGNED(32)
  static const ai_u8 s_network_weights[3612] = {
    0x4e, 0x2a, 0x0f, 0x3f, 0x95, 0x4e, 0x48, 0x3b, 0xe5, 0x71,
    0x5c, 0xbe, 0x8c, 0xe8, 0x8f, 0x3e, 0xa7, 0xc6, 0x15, 0xbe,
    0x98, 0xe5, 0x02, 0xbe, 0xb2, 0x1e, 0xb2, 0xbc, 0x4a, 0x43,
    0x5e, 0xbe, 0xae, 0x97, 0x38, 0x3e, 0x21, 0xe4, 0x2a, 0x3d,
    0x2c, 0xac, 0xb3, 0x3e, 0x3a, 0x32, 0xf2, 0xbd, 0x7b, 0x5c,
    0x6a, 0xbd, 0xcc, 0x04, 0x74, 0xbe, 0x1d, 0x8e, 0xcc, 0x3e,
    0xd6, 0x13, 0xb8, 0x3e, 0xd2, 0x93, 0x95, 0xbe, 0xbe, 0xad,
    0xde, 0x3d, 0xfc, 0x2c, 0x3a, 0x3e, 0xd6, 0xdf, 0x1a, 0xbe,
    0x16, 0xfd, 0x06, 0x3f, 0x18, 0x72, 0x6b, 0x3c, 0xc9, 0x43,
    0x19, 0x3f, 0x01, 0x97, 0x98, 0x3e, 0x7a, 0xa6, 0x78, 0xbe,
    0xe2, 0x00, 0x0f, 0xbe, 0xcc, 0x7d, 0x1b, 0xbe, 0x13, 0x57,
    0x82, 0xbe, 0x76, 0x95, 0xc1, 0xbd, 0xcb, 0x5c, 0xb6, 0x3d,
    0xf1, 0x69, 0xe6, 0x3d, 0x46, 0x81, 0xc9, 0x3e, 0x1b, 0x8d,
    0xf0, 0x3d, 0xb8, 0xa3, 0xe7, 0x3e, 0xba, 0xdc, 0xb0, 0xbd,
    0x0e, 0xd8, 0x22, 0xbe, 0xe4, 0x0c, 0x0e, 0xbe, 0x91, 0xda,
    0x0c, 0x3d, 0xcf, 0x9b, 0xc4, 0xbe, 0x0a, 0x17, 0x93, 0x3d,
    0x62, 0x30, 0x2b, 0x3e, 0x70, 0xcf, 0x03, 0xbf, 0x06, 0xf3,
    0x30, 0x3e, 0xca, 0xb5, 0xcc, 0x3e, 0x81, 0x5b, 0x37, 0x3e,
    0xea, 0x7b, 0x83, 0xbe, 0x51, 0x84, 0xd9, 0x3e, 0x18, 0x7e,
    0xb4, 0x3e, 0x39, 0xfa, 0x62, 0xbe, 0x97, 0x52, 0x39, 0xbe,
    0x1d, 0x80, 0xb5, 0xbe, 0xed, 0xf5, 0xb7, 0x3e, 0x9e, 0xd8,
    0x35, 0x3e, 0x47, 0x30, 0x7b, 0xbe, 0xfa, 0x69, 0x59, 0xbb,
    0x63, 0x62, 0xf9, 0x3d, 0xcb, 0x70, 0x69, 0xbe, 0x40, 0x26,
    0xad, 0x3e, 0x78, 0x27, 0x80, 0xbe, 0x29, 0x94, 0x4f, 0x3e,
    0xae, 0xdb, 0xce, 0xbe, 0x92, 0x18, 0x9f, 0x3d, 0x1c, 0x0b,
    0x1c, 0x3e, 0x5d, 0x99, 0xb4, 0xbe, 0x2d, 0xe7, 0x1f, 0xbe,
    0xad, 0xb2, 0xc5, 0xbd, 0x9c, 0x1c, 0xc1, 0xbe, 0xb4, 0x9f,
    0x19, 0xbd, 0xda, 0xf3, 0xd1, 0xbe, 0x20, 0x06, 0x62, 0xbe,
    0x27, 0x10, 0xa1, 0xbd, 0xf7, 0x09, 0xf3, 0x3e, 0x4e, 0x13,
    0xfe, 0x3e, 0xb1, 0x03, 0x5d, 0xbe, 0xd6, 0x03, 0xad, 0x3e,
    0x2e, 0x08, 0xb4, 0x3e, 0x28, 0xc7, 0xbe, 0xbd, 0x0f, 0xa9,
    0x66, 0xbe, 0xa3, 0xa1, 0x23, 0xbe, 0x56, 0x56, 0x64, 0x3e,
    0xd6, 0xdf, 0x57, 0x3e, 0xcf, 0x08, 0x5f, 0xbe, 0x39, 0x12,
    0xfc, 0xbe, 0x2e, 0x30, 0xba, 0x3d, 0x49, 0x89, 0x53, 0x3e,
    0x55, 0x71, 0x9a, 0x3e, 0xf7, 0x27, 0x88, 0x3e, 0x12, 0x76,
    0x18, 0xbe, 0x1b, 0x0f, 0x09, 0xbe, 0x88, 0xee, 0x5a, 0x3e,
    0x80, 0xa7, 0x6b, 0xbd, 0x1b, 0xdd, 0x7c, 0xbe, 0x73, 0xa9,
    0x45, 0xbe, 0x24, 0x28, 0xfd, 0xbd, 0x6c, 0x5f, 0xa6, 0x3e,
    0x19, 0xad, 0x76, 0xbe, 0xd1, 0x4c, 0x29, 0x3e, 0x56, 0x2b,
    0xc3, 0x3d, 0xbc, 0xdf, 0x54, 0xbe, 0xab, 0x23, 0x17, 0x3e,
    0x55, 0x27, 0xc5, 0xbe, 0xe0, 0x6b, 0x97, 0xbb, 0x6f, 0x5c,
    0x01, 0xbf, 0x13, 0x7c, 0x95, 0x3e, 0xb9, 0x56, 0x2e, 0x3e,
    0xe9, 0x62, 0xba, 0x3e, 0x12, 0x32, 0x1f, 0xbe, 0x53, 0xa9,
    0x33, 0x3e, 0xa7, 0x65, 0xfc, 0x3d, 0x07, 0x87, 0xc1, 0xbe,
    0x09, 0x3d, 0x00, 0x3f, 0xf8, 0x13, 0x12, 0xbc, 0xe4, 0x08,
    0x65, 0x3e, 0x43, 0x7b, 0x3d, 0xbd, 0x22, 0x49, 0xa7, 0x3e,
    0xe7, 0xb1, 0xad, 0x3d, 0xc1, 0x5c, 0xc6, 0x3b, 0xf0, 0x9b,
    0x82, 0xbc, 0x9d, 0xd8, 0xff, 0x3e, 0x2c, 0x1e, 0xae, 0xbd,
    0x11, 0xca, 0x0e, 0xbf, 0x0f, 0x90, 0xa2, 0xbe, 0xa1, 0xae,
    0x7c, 0xbd, 0x64, 0x2b, 0xc6, 0xbb, 0x7a, 0xa9, 0x1b, 0xbc,
    0x87, 0xca, 0x73, 0x3e, 0x18, 0xe7, 0x07, 0xbf, 0x15, 0x7f,
    0x31, 0xbe, 0x73, 0xae, 0x63, 0xbe, 0x7c, 0x79, 0x67, 0x3e,
    0x9b, 0x66, 0x1f, 0xbf, 0xd8, 0x36, 0x66, 0xbd, 0x31, 0x43,
    0x0c, 0x3f, 0x8f, 0xa0, 0x8f, 0x3e, 0x4a, 0xfa, 0xa7, 0x3e,
    0x76, 0x3c, 0xc3, 0x3e, 0x9a, 0x8a, 0xed, 0x3e, 0xf4, 0x35,
    0xfe, 0x3d, 0x80, 0x8d, 0x57, 0x3e, 0x40, 0x8c, 0x07, 0xbc,
    0xf3, 0xa4, 0xaa, 0xbd, 0x14, 0xd3, 0x98, 0xbd, 0x9c, 0x39,
    0xda, 0x3e, 0x00, 0x77, 0x4e, 0x3d, 0xea, 0xcf, 0x0b, 0xbf,
    0x9c, 0x59, 0x53, 0x3e, 0x71, 0x50, 0xc2, 0xbe, 0xf6, 0xa7,
    0xaa, 0x3e, 0x3e, 0x6a, 0xd3, 0xbe, 0xdf, 0x8a, 0x80, 0xbe,
    0xb4, 0xcc, 0xaa, 0xbe, 0x04, 0x4f, 0xdd, 0x3d, 0x05, 0x9d,
    0x26, 0xbe, 0xaa, 0x41, 0x8c, 0xbe, 0x3b, 0x55, 0x06, 0x3e,
    0xdc, 0xac, 0x08, 0x3e, 0x0e, 0x73, 0x92, 0x3b, 0x1c, 0x26,
    0xca, 0xbe, 0x9a, 0x0f, 0x10, 0xbe, 0x1a, 0xd0, 0xa9, 0x3e,
    0xfd, 0x4f, 0x5e, 0xbd, 0x8e, 0x12, 0x83, 0x3d, 0x7e, 0xac,
    0xa1, 0xbe, 0x42, 0x16, 0x8a, 0x3d, 0x93, 0x53, 0xa9, 0x3e,
    0x00, 0x00, 0x00, 0x00, 0x66, 0x7d, 0xb7, 0x3e, 0xad, 0x56,
    0x37, 0xbe, 0x47, 0x77, 0x11, 0x3e, 0xde, 0x2e, 0x67, 0x3e,
    0xe4, 0xf3, 0x40, 0xbe, 0x3d, 0x7b, 0x49, 0xbe, 0xb7, 0x5b,
    0x2c, 0xbe, 0x1d, 0x9d, 0x95, 0xbd, 0x72, 0x0b, 0x21, 0x3e,
    0x48, 0x83, 0x4f, 0x3d, 0x80, 0xb4, 0x63, 0xbd, 0xf7, 0x11,
    0xb1, 0xbe, 0x00, 0x1c, 0x90, 0x39, 0xf4, 0x1f, 0xb4, 0x3d,
    0xf4, 0x3d, 0xc4, 0xbd, 0x2f, 0x4a, 0x74, 0xbe, 0xa0, 0xcc,
    0x2f, 0xbc, 0x2e, 0x70, 0x38, 0xbe, 0x38, 0x88, 0x71, 0x3e,
    0x5d, 0x0c, 0x86, 0xbe, 0xb0, 0xe0, 0xe9, 0x3c, 0xc8, 0x44,
    0xae, 0xbd, 0x78, 0x93, 0x21, 0x3e, 0x28, 0x0a, 0xc9, 0xbd,
    0xb1, 0x13, 0x8a, 0xbe, 0x74, 0x3d, 0x4e, 0x3e, 0x70, 0x0a,
    0xa1, 0xbc, 0xfe, 0x24, 0x02, 0xbe, 0xee, 0x62, 0x92, 0x3e,
    0x3c, 0xbb, 0x93, 0xbd, 0x3c, 0x65, 0xfe, 0x3d, 0x9e, 0x33,
    0xa7, 0xbe, 0x00, 0xdf, 0xc4, 0xba, 0xd2, 0xaa, 0xe2, 0xbd,
    0x7e, 0x91, 0x6f, 0xbe, 0x2e, 0x2f, 0x3b, 0x3e, 0xf0, 0x2b,
    0x9a, 0xbe, 0x24, 0xac, 0xa5, 0xbe, 0xcb, 0xec, 0x3e, 0x3d,
    0xc5, 0x7e, 0xe0, 0xbd, 0x6e, 0xcf, 0x9f, 0xbe, 0xba, 0xf9,
    0x8f, 0xbe, 0x3a, 0x48, 0x3a, 0x3e, 0xbe, 0x72, 0x3a, 0x3e,
    0xb0, 0x9c, 0xc6, 0x3d, 0xdd, 0x24, 0x79, 0x3e, 0xe1, 0x25,
    0x96, 0xbd, 0x92, 0xac, 0xc6, 0x3e, 0x89, 0x0b, 0x64, 0x3e,
    0x2c, 0xf6, 0x93, 0x3d, 0x58, 0x59, 0x41, 0x3e, 0x8f, 0x82,
    0xbb, 0x3e, 0x7b, 0x30, 0x3a, 0xbe, 0xd2, 0x70, 0x1c, 0xbe,
    0x0e, 0x64, 0xe3, 0xbc, 0x47, 0xd0, 0x3e, 0xba, 0x84, 0xd2,
    0x97, 0x3e, 0xd9, 0x15, 0x2c, 0xbe, 0x94, 0x88, 0x8f, 0x3e,
    0x4b, 0x86, 0x9a, 0xbe, 0xb8, 0x54, 0x9f, 0xbe, 0x9b, 0xe2,
    0x00, 0x3e, 0x37, 0x14, 0x46, 0x3e, 0xb9, 0x61, 0xa4, 0xbd,
    0xfd, 0x6d, 0x95, 0x3e, 0xa9, 0x81, 0x31, 0x3d, 0x3c, 0x2a,
    0x86, 0xbe, 0x67, 0x19, 0x6f, 0x3e, 0x6e, 0xf8, 0x93, 0x3e,
    0x40, 0xde, 0x73, 0xbe, 0xd5, 0xac, 0xb9, 0xbe, 0xc3, 0x01,
    0x5c, 0xbe, 0x64, 0x75, 0x5b, 0x3e, 0xf7, 0x55, 0x56, 0xbd,
    0x60, 0x10, 0x5b, 0xbc, 0xd9, 0x5a, 0x1e, 0xbe, 0x69, 0x52,
    0x93, 0x3e, 0x02, 0xaa, 0x92, 0xbe, 0x5d, 0xcb, 0xa2, 0x3d,
    0x24, 0x7e, 0x0c, 0x3d, 0x6a, 0x17, 0x79, 0x3e, 0xcb, 0xa6,
    0x39, 0xbe, 0x5a, 0x9d, 0x59, 0xbe, 0x31, 0x41, 0x5a, 0x3e,
    0x63, 0x89, 0x98, 0xbe, 0xdd, 0xf8, 0x4d, 0xbe, 0x2a, 0xfc,
    0x00, 0xbe, 0x01, 0x1b, 0x9f, 0xbe, 0x65, 0x79, 0x61, 0xbe,
    0x62, 0x87, 0x59, 0xbe, 0xf0, 0x85, 0x5d, 0x3e, 0xec, 0xe6,
    0x83, 0x3e, 0xe8, 0xfa, 0x0f, 0x3d, 0xa2, 0x11, 0x22, 0xbe,
    0x20, 0xa4, 0x8c, 0x3c, 0x4e, 0x08, 0x02, 0xbe, 0x40, 0x63,
    0x3b, 0xbc, 0x6c, 0x61, 0x5d, 0x3e, 0x55, 0x94, 0x91, 0xbe,
    0xe8, 0xbe, 0x9f, 0x3e, 0x7c, 0xfe, 0x7d, 0xbe, 0x98, 0x9d,
    0x34, 0x3e, 0xa0, 0xf2, 0x5f, 0xbd, 0x9a, 0xd6, 0x89, 0x3e,
    0x98, 0xb2, 0x90, 0xbd, 0xf4, 0xfa, 0x3b, 0x3e, 0x5e, 0x9f,
    0x8b, 0xbe, 0xbc, 0x01, 0xa5, 0x3e, 0x86, 0x35, 0x32, 0xbe,
    0x77, 0x04, 0x03, 0x3e, 0x58, 0xbc, 0x80, 0x3d, 0x37, 0xe0,
    0x1d, 0x3e, 0x29, 0xe4, 0x75, 0x3d, 0x85, 0x70, 0x3d, 0xbd,
    0x0a, 0xff, 0x41, 0xbe, 0x98, 0x06, 0xd2, 0x3d, 0xac, 0xce,
    0x7f, 0x3e, 0x5b, 0x99, 0xaa, 0x3e, 0xaa, 0x3f, 0x02, 0x3d,
    0xfb, 0xff, 0xdf, 0x3d, 0xc0, 0xcb, 0x31, 0xbe, 0x38, 0x1d,
    0x0f, 0x3e, 0xfa, 0x2c, 0x96, 0x3e, 0x4d, 0x78, 0x00, 0xbd,
    0xa8, 0x1e, 0xaf, 0x3e, 0xb8, 0x00, 0xa1, 0xbd, 0x41, 0xbb,
    0xb5, 0x3e, 0x29, 0x54, 0x06, 0x3e, 0xb6, 0x8b, 0xec, 0x3e,
    0x66, 0xa5, 0x4d, 0x3e, 0xfa, 0x65, 0x6c, 0x3e, 0xc6, 0x1b,
    0x95, 0xbe, 0x3c, 0x36, 0x25, 0x3e, 0x64, 0x94, 0x91, 0x3c,
    0x00, 0x2c, 0x2f, 0xba, 0x67, 0x9b, 0x4c, 0xbe, 0x28, 0x5c,
    0x4e, 0xbe, 0xf8, 0x48, 0xaa, 0x3e, 0x76, 0x7f, 0xc9, 0xbd,
    0xfc, 0x21, 0x37, 0x3e, 0xc9, 0x1b, 0x5e, 0xbe, 0x98, 0xb2,
    0x25, 0xbe, 0xa4, 0x39, 0x92, 0x3d, 0xd6, 0x04, 0x65, 0xbe,
    0x4d, 0x57, 0x41, 0xbe, 0x10, 0xcc, 0x57, 0x3e, 0xf0, 0x81,
    0xdd, 0x3c, 0x14, 0x92, 0xe7, 0xbd, 0xb0, 0x16, 0x16, 0xbd,
    0x50, 0xc3, 0x8e, 0xbd, 0xf0, 0xc4, 0xa6, 0xbd, 0xed, 0x38,
    0x13, 0xbe, 0x50, 0x15, 0x4f, 0x3d, 0x60, 0x0c, 0x99, 0xbe,
    0x2b, 0xb2, 0x89, 0xbe, 0x1e, 0x13, 0x92, 0xbe, 0x53, 0x55,
    0x0f, 0xbe, 0xd8, 0x47, 0xce, 0x3d, 0xe4, 0x32, 0xac, 0xbe,
    0x61, 0x77, 0xbb, 0xbd, 0x28, 0xd8, 0x25, 0x3e, 0x02, 0x1f,
    0x4a, 0xbe, 0x02, 0x81, 0x4b, 0xbe, 0x32, 0xf9, 0x79, 0xbe,
    0xfe, 0xab, 0xa2, 0x3d, 0xba, 0xd2, 0x51, 0x3e, 0x1e, 0xd3,
    0xb2, 0x3e, 0x68, 0xc3, 0x72, 0xbe, 0xb3, 0xc0, 0x0c, 0xbe,
    0x8e, 0x29, 0x7f, 0x3d, 0x20, 0x09, 0x8a, 0x3e, 0x3a, 0x0b,
    0x68, 0x3e, 0x22, 0x0e, 0x46, 0x3c, 0x7e, 0xb7, 0x9d, 0xbe,
    0xa4, 0xa1, 0xa9, 0xbe, 0x8e, 0xa2, 0x8a, 0x3d, 0x4f, 0xbb,
    0x67, 0x3e, 0x08, 0x34, 0x67, 0xbd, 0x0a, 0x6a, 0x47, 0xbe,
    0xef, 0x1d, 0x80, 0x3e, 0x12, 0xc6, 0xbe, 0xbe, 0x8d, 0x6b,
    0x31, 0xbe, 0x4e, 0xc1, 0x72, 0xbe, 0xd1, 0xf6, 0xf7, 0xbb,
    0x70, 0x7c, 0xac, 0x3e, 0x15, 0x9e, 0x11, 0xbe, 0x15, 0x09,
    0xac, 0xbe, 0x5c, 0x6f, 0x97, 0xbe, 0xb8, 0xde, 0x79, 0xbd,
    0xbb, 0x61, 0x85, 0x3e, 0x0f, 0xbf, 0xa6, 0xbd, 0xeb, 0xa0,
    0x39, 0xbe, 0x92, 0x79, 0x4b, 0xbe, 0x1c, 0x11, 0x8a, 0x3d,
    0xca, 0xb3, 0xd8, 0x3d, 0x84, 0x77, 0xd6, 0x3d, 0xf2, 0x34,
    0x44, 0x3d, 0xc9, 0x86, 0xca, 0xbe, 0x06, 0x48, 0x2c, 0xbe,
    0x1c, 0xfb, 0x23, 0x3e, 0x5a, 0x65, 0x89, 0x3e, 0x15, 0x43,
    0x91, 0x3e, 0x70, 0x82, 0xac, 0xbe, 0x7a, 0x4a, 0x87, 0xbd,
    0xcb, 0x1e, 0xc9, 0xbc, 0xce, 0xbb, 0x89, 0x3e, 0x99, 0x49,
    0x74, 0x3b, 0x63, 0xa3, 0x91, 0x3d, 0x37, 0x04, 0xaf, 0xbd,
    0xdb, 0x50, 0x6f, 0xbd, 0x9f, 0x2e, 0xba, 0xbe, 0x4f, 0xde,
    0x8c, 0xbe, 0x22, 0x90, 0x8f, 0x3e, 0xc0, 0xd3, 0x97, 0x3e,
    0xa6, 0xcc, 0x19, 0x3e, 0xe4, 0xfb, 0xa5, 0x3e, 0xf2, 0xc8,
    0x18, 0xbe, 0x8c, 0x56, 0x61, 0x3e, 0x26, 0x68, 0x75, 0x3e,
    0x14, 0xae, 0x40, 0xbe, 0x35, 0x60, 0x8d, 0xbe, 0x99, 0xe0,
    0x45, 0xbe, 0x50, 0x63, 0x58, 0xbe, 0x64, 0x6b, 0xa8, 0xbe,
    0x32, 0x90, 0x92, 0x3e, 0xa2, 0x42, 0xe4, 0xbd, 0x24, 0xec,
    0x2d, 0xbe, 0x96, 0x81, 0x8c, 0x3e, 0x62, 0xbb, 0xa1, 0x3e,
    0x6f, 0x2a, 0xbe, 0x3c, 0xb4, 0x37, 0x26, 0x3e, 0xab, 0x14,
    0x99, 0xbd, 0x8d, 0x25, 0x54, 0xbe, 0x58, 0x2c, 0x68, 0xbe,
    0xca, 0xd6, 0x9d, 0x3d, 0xd4, 0xcf, 0x75, 0x3e, 0x15, 0x93,
    0x49, 0xbd, 0x17, 0xa0, 0x0b, 0x3e, 0x3c, 0x29, 0xc1, 0xbd,
    0x21, 0x9a, 0x84, 0x3e, 0xbe, 0xda, 0x10, 0x3e, 0x38, 0x22,
    0x8c, 0x3e, 0x18, 0x07, 0xa5, 0x3e, 0x19, 0x8b, 0x6d, 0xbe,
    0x24, 0xfe, 0x8e, 0x3d, 0x5f, 0x38, 0x35, 0x3e, 0xbc, 0xc2,
    0x4e, 0x3e, 0x2c, 0x01, 0x6f, 0x3e, 0x57, 0x15, 0x37, 0xbd,
    0x40, 0xab, 0xc0, 0x3b, 0x95, 0x3f, 0x85, 0x3d, 0x4a, 0x89,
    0x91, 0xbd, 0x6e, 0xa9, 0xe5, 0xbd, 0x35, 0xff, 0xa0, 0xbe,
    0x6f, 0x92, 0xd8, 0xbd, 0xd5, 0x92, 0xec, 0xbd, 0x3f, 0x03,
    0x25, 0xbe, 0xa3, 0x9f, 0x1a, 0xbe, 0x6d, 0xa5, 0x80, 0x3b,
    0x14, 0x8b, 0x1e, 0xbe, 0x3d, 0x74, 0x09, 0xbd, 0xa1, 0xb7,
    0xb5, 0x3e, 0xe4, 0x15, 0xaa, 0x3c, 0xb0, 0x77, 0x32, 0x3e,
    0xe3, 0xc8, 0xe0, 0x3d, 0xfa, 0x33, 0x12, 0x3e, 0x9d, 0xff,
    0x36, 0xbe, 0x2f, 0x29, 0x75, 0xbd, 0xde, 0x64, 0x3a, 0x3d,
    0x17, 0x65, 0x23, 0xbe, 0xc6, 0x2b, 0x7a, 0xbd, 0x6d, 0x76,
    0x90, 0xbd, 0xf2, 0xe3, 0x19, 0xbc, 0xa1, 0x27, 0x11, 0x3c,
    0x5a, 0x57, 0x20, 0xbe, 0x1a, 0x97, 0xbc, 0x3e, 0x44, 0x93,
    0xc3, 0xbd, 0x57, 0x4f, 0x65, 0x3e, 0xb3, 0xa8, 0xdd, 0x3c,
    0x73, 0x13, 0xc6, 0xbd, 0x53, 0x52, 0x91, 0x3e, 0x55, 0x4e,
    0x51, 0x3e, 0xf3, 0xee, 0x53, 0xbe, 0x30, 0x5f, 0x86, 0xbe,
    0x23, 0x70, 0x75, 0x3d, 0xbc, 0x62, 0xed, 0xbd, 0xe6, 0x26,
    0x85, 0xbd, 0xf1, 0x06, 0x12, 0xbe, 0xe6, 0xdf, 0x71, 0x3d,
    0xbb, 0x06, 0xbe, 0xbd, 0x99, 0x5e, 0x92, 0xbd, 0xf5, 0xb5,
    0x8b, 0xbd, 0x92, 0x1a, 0x93, 0xbe, 0xd0, 0x79, 0x81, 0x3d,
    0xd7, 0xdd, 0xc0, 0xbd, 0x69, 0x1b, 0x6a, 0xbe, 0x59, 0xe9,
    0xa1, 0xbe, 0xa2, 0x10, 0x85, 0x3d, 0x4c, 0xb8, 0xa8, 0x3e,
    0x88, 0x3d, 0x6a, 0x3e, 0x83, 0xe8, 0x48, 0xbd, 0x6b, 0xa8,
    0xaf, 0x3d, 0x18, 0xbc, 0x75, 0x3d, 0x54, 0xa4, 0xb8, 0xbd,
    0x54, 0xde, 0xd7, 0x3d, 0x3f, 0x56, 0x8c, 0xbe, 0x82, 0x74,
    0xe7, 0x3c, 0xc6, 0xe1, 0x65, 0xbe, 0x81, 0x2f, 0x8c, 0x3e,
    0x0c, 0x5d, 0x92, 0xbe, 0x0c, 0x28, 0x5e, 0xbe, 0x9b, 0xf5,
    0xb7, 0xbe, 0xc7, 0xca, 0xca, 0x3d, 0xa0, 0x3f, 0x72, 0xbe,
    0x55, 0x64, 0x36, 0xbe, 0xd5, 0xf3, 0x80, 0xbe, 0x07, 0xf2,
    0x59, 0xbe, 0x43, 0xf1, 0x88, 0xbe, 0xbe, 0x59, 0xb6, 0xbe,
    0x08, 0x73, 0x68, 0x3e, 0x69, 0xbc, 0x86, 0x3e, 0xe3, 0xa0,
    0x62, 0x3d, 0xee, 0xbf, 0x85, 0x3e, 0x37, 0x07, 0xb3, 0xbe,
    0xc5, 0x21, 0x10, 0xbe, 0xf2, 0x7d, 0x05, 0x3e, 0xca, 0x2f,
    0x8a, 0xbc, 0xa5, 0x86, 0x10, 0xbd, 0x81, 0x4c, 0x36, 0x3e,
    0x2e, 0xc9, 0x6e, 0xbe, 0xe2, 0x34, 0x0b, 0x3e, 0xc9, 0x01,
    0x5d, 0x3e, 0x85, 0x78, 0x73, 0xbe, 0x4d, 0x0d, 0x29, 0xbe,
    0x51, 0x50, 0x24, 0x3e, 0x02, 0xe3, 0x17, 0x3c, 0x63, 0xb2,
    0x44, 0x3e, 0xbb, 0x46, 0x6a, 0x3e, 0xb8, 0x88, 0x8f, 0x3e,
    0x54, 0x95, 0x2a, 0x3d, 0x91, 0x55, 0x81, 0xbe, 0xca, 0x26,
    0xb4, 0xbd, 0x42, 0xb3, 0x6f, 0x3e, 0x02, 0xee, 0x0a, 0xbe,
    0x63, 0x3c, 0x2b, 0xbe, 0xa8, 0x12, 0x46, 0xbe, 0xff, 0xca,
    0x2b, 0x3d, 0x35, 0x48, 0x1c, 0xbe, 0xe9, 0x37, 0x98, 0xbe,
    0x7e, 0x3d, 0xa7, 0xbe, 0xd4, 0x5a, 0x2f, 0xbe, 0x30, 0x7a,
    0xeb, 0x3b, 0x01, 0x9e, 0xfa, 0x3d, 0x30, 0x1a, 0x53, 0x3e,
    0x33, 0x9f, 0xb5, 0x3d, 0x6b, 0x95, 0x09, 0x3e, 0x85, 0xec,
    0x8e, 0xbd, 0x52, 0xed, 0x1c, 0xbe, 0x62, 0x83, 0x2a, 0x3e,
    0xeb, 0xd6, 0x3d, 0xbe, 0x7e, 0xb9, 0x92, 0x3e, 0xf8, 0xef,
    0xb1, 0xbe, 0x7f, 0x68, 0x59, 0x3e, 0x48, 0x0a, 0x2b, 0x3e,
    0xb4, 0xe5, 0x5a, 0xbe, 0x72, 0x9d, 0x3a, 0xbe, 0x28, 0x3e,
    0xca, 0xbe, 0x8e, 0x98, 0x2a, 0xbe, 0xf3, 0x81, 0x60, 0x3d,
    0xaa, 0xef, 0x42, 0xbe, 0xb2, 0x79, 0x92, 0xbc, 0x32, 0x15,
    0xc9, 0xbd, 0x48, 0xd1, 0x89, 0x3e, 0xd2, 0x58, 0x82, 0x3e,
    0x90, 0x5f, 0x44, 0x3e, 0x8e, 0xa4, 0xb8, 0xbe, 0x2f, 0x80,
    0x3e, 0x3e, 0x40, 0xb8, 0x7b, 0xbd, 0xd8, 0x2f, 0x49, 0x3e,
    0xea, 0xaa, 0x13, 0x3e, 0x0b, 0x42, 0x71, 0x3e, 0x0e, 0xc6,
    0xb4, 0xbe, 0xa5, 0x66, 0x54, 0xbe, 0x9b, 0xa7, 0x81, 0xbe,
    0x97, 0x98, 0xd7, 0xbd, 0x0e, 0xe9, 0x14, 0x3e, 0xa6, 0xa7,
    0xf7, 0x3d, 0x5c, 0x4a, 0x7b, 0x3e, 0x11, 0x40, 0x13, 0xbd,
    0xe2, 0xa8, 0x93, 0x3c, 0x55, 0x31, 0xa8, 0x3e, 0xd9, 0xe3,
    0x51, 0x3e, 0x02, 0x1c, 0x92, 0xbd, 0x9c, 0x22, 0xa5, 0xbe,
    0x04, 0xa3, 0x98, 0xbe, 0xf7, 0xa4, 0xab, 0xbe, 0x17, 0xe0,
    0xde, 0x3d, 0x23, 0x25, 0x19, 0xbd, 0xef, 0x0f, 0x11, 0xbe,
    0x74, 0x83, 0x95, 0xbe, 0xa3, 0xb8, 0xba, 0x3c, 0xee, 0x87,
    0x28, 0x3d, 0x7d, 0x80, 0x3d, 0x3e, 0xfb, 0x49, 0xe7, 0x3d,
    0x5e, 0xa3, 0x3c, 0x3e, 0xfb, 0xb3, 0x70, 0xbe, 0x40, 0x2a,
    0xda, 0x3d, 0xda, 0xbf, 0xaa, 0x3e, 0x9d, 0x69, 0x78, 0xbe,
    0x6c, 0x0f, 0xbe, 0x3d, 0x5a, 0x93, 0x94, 0xbc, 0xf2, 0x7a,
    0x7a, 0x3e, 0x2f, 0x4d, 0xa8, 0x3d, 0x74, 0xc2, 0x55, 0x3e,
    0xca, 0x6b, 0x16, 0xbe, 0x72, 0xd0, 0x31, 0x3e, 0x01, 0xf4,
    0x9b, 0xbe, 0xda, 0x53, 0xda, 0x3d, 0x67, 0x61, 0x99, 0xbd,
    0x90, 0x74, 0x8e, 0xbe, 0x8b, 0xda, 0x4c, 0xbe, 0x80, 0xfb,
    0xbf, 0xbd, 0xa0, 0xb7, 0x2c, 0x3e, 0xb8, 0x30, 0x91, 0x3e,
    0x41, 0xea, 0x89, 0xbe, 0x10, 0xd2, 0xbb, 0x3c, 0x08, 0x8c,
    0x55, 0x3e, 0x03, 0xe7, 0x09, 0xbd, 0x3d, 0xb5, 0xb8, 0x3a,
    0x92, 0x9b, 0xaf, 0xbd, 0x9b, 0x72, 0xd5, 0x3d, 0xa1, 0xec,
    0x50, 0xbe, 0xef, 0x44, 0x98, 0x3e, 0xfe, 0xc2, 0xa1, 0x3e,
    0xcf, 0x77, 0x9b, 0x3e, 0x2a, 0xfc, 0x57, 0x3e, 0x13, 0x90,
    0x84, 0x3b, 0xfa, 0x3b, 0x99, 0x3e, 0x11, 0xd8, 0xf4, 0x3d,
    0xd8, 0xd2, 0xa4, 0xbe, 0x32, 0x91, 0xa3, 0xbe, 0x64, 0xeb,
    0x87, 0xbd, 0x1b, 0x39, 0xb3, 0xbe, 0x2a, 0x34, 0x64, 0x3e,
    0xb3, 0xe5, 0x4b, 0x3e, 0x25, 0xb3, 0x16, 0xbe, 0xe8, 0x2e,
    0xcd, 0x3c, 0x14, 0x28, 0x48, 0xbe, 0x4a, 0x8f, 0x08, 0x3d,
    0xd0, 0x63, 0xe7, 0xbc, 0x1d, 0x8d, 0xe6, 0xbd, 0x0a, 0xfa,
    0xea, 0x3d, 0x31, 0x46, 0x06, 0x3e, 0xb1, 0xfb, 0x0d, 0xbf,
    0x0a, 0x04, 0x3e, 0xb9, 0x7a, 0xd9, 0xae, 0x3e, 0x69, 0x1e,
    0x87, 0x3e, 0x41, 0x5e, 0xb0, 0xbe, 0x73, 0x9d, 0x48, 0xbe,
    0x20, 0x2d, 0xaf, 0x3d, 0x93, 0x6a, 0x64, 0xbe, 0xf6, 0xf6,
    0xbd, 0xbc, 0x31, 0xf8, 0x9e, 0x3e, 0x4a, 0x1a, 0x51, 0xbe,
    0x65, 0xc6, 0x61, 0xbd, 0xd3, 0x88, 0x61, 0xbd, 0x60, 0xa5,
    0x0a, 0x3e, 0x55, 0x52, 0x06, 0x3d, 0xf8, 0xd3, 0x92, 0xbe,
    0x80, 0x4c, 0x2f, 0x3e, 0x5e, 0x43, 0x8e, 0xbe, 0xef, 0x7a,
    0x29, 0x3e, 0x85, 0xc8, 0xfd, 0x3d, 0xbc, 0x79, 0xfa, 0xbd,
    0x18, 0x6b, 0x8c, 0x3e, 0x11, 0x6c, 0x5e, 0xbe, 0xca, 0xd4,
    0x80, 0x3e, 0x9b, 0x04, 0xea, 0xbe, 0x41, 0x66, 0x2a, 0xbd,
    0x2f, 0xc4, 0xa4, 0xbc, 0xbd, 0xa6, 0x96, 0xbe, 0xcd, 0xdc,
    0x2f, 0x3e, 0xd0, 0x34, 0x05, 0x3e, 0xc6, 0x12, 0x00, 0x3d,
    0xac, 0x78, 0x09, 0xbd, 0x8e, 0xe9, 0x6c, 0xbe, 0x75, 0xcf,
    0xeb, 0xbd, 0x90, 0xe8, 0x8d, 0xbe, 0xfe, 0x5c, 0x17, 0x3e,
    0x28, 0x14, 0xa7, 0x3d, 0xbd, 0x0d, 0x8a, 0xbe, 0xc2, 0x57,
    0x44, 0xbe, 0x03, 0xda, 0x91, 0xbe, 0x8e, 0xcb, 0x3f, 0x3e,
    0xa7, 0xee, 0x63, 0x3e, 0x17, 0x75, 0x04, 0xbe, 0x76, 0xd9,
    0x04, 0x3e, 0x28, 0x75, 0xbc, 0x3e, 0xe4, 0x0d, 0x5b, 0x3e,
    0xa0, 0x7d, 0xd1, 0x3d, 0x5b, 0x8b, 0x08, 0x3e, 0x85, 0x37,
    0x89, 0x3e, 0x42, 0xdf, 0xe1, 0xbd, 0x19, 0xd5, 0x62, 0xbe,
    0xe8, 0x3e, 0x51, 0xbe, 0xd4, 0xb7, 0xb8, 0x3c, 0xa1, 0x3c,
    0x43, 0xbe, 0xce, 0x76, 0x43, 0x3e, 0x6a, 0x22, 0x30, 0xbe,
    0x7b, 0x11, 0x4c, 0xbd, 0xdb, 0x92, 0x30, 0xbd, 0x96, 0x2e,
    0x8d, 0x3e, 0xf7, 0xbe, 0x8c, 0xbe, 0xb7, 0x15, 0x4a, 0xbe,
    0xb0, 0x53, 0x72, 0xbe, 0x46, 0xf0, 0x4b, 0x3e, 0x6f, 0xfc,
    0x2a, 0xbe, 0xa8, 0x56, 0xa1, 0x3e, 0x51, 0x6b, 0x73, 0x3e,
    0x28, 0x22, 0xb4, 0xbd, 0xf1, 0x1c, 0x1a, 0xbe, 0xb4, 0xb3,
    0x3e, 0xbc, 0xc5, 0xe1, 0xf4, 0xbd, 0x8d, 0x7d, 0x64, 0xbe,
    0xf1, 0xc3, 0x49, 0xbe, 0x06, 0x5a, 0x1d, 0xbd, 0x62, 0xd2,
    0x02, 0xbe, 0xc8, 0xb7, 0xf7, 0xbd, 0x64, 0xdc, 0x28, 0xbe,
    0x64, 0xf8, 0x4d, 0x3e, 0x59, 0xcf, 0xe4, 0x3d, 0x98, 0x4c,
    0x83, 0x3e, 0xf9, 0x7b, 0x92, 0x3e, 0x9c, 0xed, 0x00, 0x3e,
    0x46, 0x3f, 0x7d, 0x3e, 0x1e, 0xcf, 0x7c, 0x3e, 0x8c, 0x6b,
    0x77, 0xbe, 0x2d, 0x1c, 0x58, 0xbe, 0xe5, 0x1c, 0x36, 0xbe,
    0xff, 0x07, 0x57, 0xbe, 0xcf, 0x80, 0x8d, 0xbe, 0x63, 0x86,
    0x9f, 0xbe, 0x1c, 0xbb, 0x0c, 0x3e, 0xc1, 0xf9, 0x7e, 0x3e,
    0x60, 0xac, 0x0a, 0x3e, 0x10, 0x2a, 0x20, 0xbd, 0x64, 0xde,
    0x51, 0xbe, 0xd3, 0x3a, 0x3d, 0x3e, 0x59, 0x04, 0x7a, 0x3d,
    0x50, 0x35, 0x5d, 0xbd, 0x98, 0x64, 0xe1, 0x3d, 0xe2, 0x58,
    0x4c, 0x3c, 0x9a, 0x51, 0x1f, 0x3e, 0xe4, 0x48, 0x3f, 0x3e,
    0x8b, 0xdf, 0x05, 0xbe, 0x5b, 0xec, 0x2e, 0x3e, 0x47, 0x19,
    0xfe, 0x3d, 0x8d, 0xca, 0x94, 0xbe, 0x25, 0x75, 0x8b, 0x3e,
    0x02, 0x97, 0xaf, 0x3e, 0x9d, 0x39, 0x88, 0xbe, 0xa1, 0x26,
    0x87, 0x3e, 0x97, 0xd2, 0x01, 0xbe, 0x68, 0x63, 0xb0, 0xbe,
    0x42, 0x2f, 0x90, 0xbe, 0xa0, 0xf6, 0x47, 0x3d, 0x70, 0xd1,
    0xae, 0x3d, 0xa4, 0x3c, 0x44, 0x3e, 0x80, 0x09, 0xed, 0x3d,
    0xc8, 0xdf, 0x86, 0x3e, 0xde, 0x25, 0xc6, 0xbd, 0xf0, 0x63,
    0x06, 0x3e, 0x21, 0xc4, 0xdf, 0xbe, 0x87, 0xf0, 0x5d, 0xbe,
    0x71, 0x67, 0x10, 0xbe, 0x08, 0xb6, 0x8e, 0x3e, 0x1c, 0xa2,
    0xea, 0xbc, 0x0e, 0xde, 0x83, 0x3d, 0x0e, 0x92, 0x03, 0xbe,
    0x4f, 0xe8, 0x8c, 0xbe, 0xae, 0xb8, 0xa0, 0xbd, 0xd5, 0x32,
    0x03, 0x3e, 0xde, 0x7d, 0x76, 0xbe, 0xae, 0x0d, 0x1a, 0xbe,
    0x1e, 0x78, 0x9b, 0x3e, 0xdd, 0xc9, 0x6d, 0x3d, 0xcb, 0x4e,
    0x6a, 0xbd, 0x43, 0x74, 0x02, 0x3e, 0x8d, 0xd1, 0x42, 0x3e,
    0x84, 0x17, 0x8b, 0xbe, 0xbc, 0xdd, 0x83, 0x3e, 0xf7, 0xad,
    0x73, 0x3e, 0x7b, 0x40, 0x84, 0xbe, 0x0e, 0xb0, 0x71, 0x3e,
    0xcd, 0x14, 0xcd, 0xbd, 0xe5, 0x46, 0xac, 0xbe, 0x02, 0x4d,
    0xb2, 0xbe, 0x37, 0x8c, 0xf1, 0xbd, 0x27, 0x3e, 0x02, 0xbd,
    0x54, 0x5b, 0x96, 0x3d, 0x22, 0xe8, 0x9e, 0x3e, 0x87, 0x12,
    0x05, 0x3e, 0x8a, 0xbc, 0x15, 0x3e, 0x6b, 0x18, 0x76, 0x3e,
    0xf7, 0xd6, 0x98, 0xbd, 0xa1, 0x3a, 0x22, 0xbd, 0xff, 0xb2,
    0xa9, 0xbe, 0xd3, 0xdb, 0x0d, 0x3e, 0x01, 0xda, 0x89, 0x3e,
    0x44, 0x27, 0x3e, 0xbe, 0x86, 0xee, 0x15, 0x3e, 0x36, 0x85,
    0x81, 0xbe, 0x78, 0x54, 0x0d, 0x3d, 0xf0, 0xc4, 0x1e, 0x3e,
    0x74, 0xe5, 0x9a, 0xbe, 0xd0, 0xac, 0x22, 0x3d, 0x14, 0xc0,
    0xf2, 0xbd, 0xf4, 0xcf, 0xa8, 0xbe, 0x58, 0xac, 0x3a, 0x3e,
    0xdc, 0xd0, 0x16, 0x3e, 0x26, 0xdf, 0xaa, 0xbe, 0xac, 0x5c,
    0x41, 0x3e, 0xf2, 0x22, 0xd2, 0xbd, 0xad, 0x01, 0x6c, 0xbe,
    0xa2, 0xd5, 0x85, 0xbe, 0x04, 0x12, 0xd0, 0xbd, 0xd6, 0x43,
    0x76, 0xbe, 0xca, 0x4f, 0x48, 0xbe, 0x60, 0x0f, 0xa3, 0xbd,
    0xb8, 0x04, 0x43, 0xbe, 0xde, 0xe1, 0x9a, 0x3e, 0x2a, 0x12,
    0x7f, 0xbe, 0x54, 0xb8, 0x72, 0xbe, 0x70, 0xf9, 0x68, 0xbe,
    0x00, 0x00, 0x00, 0x00, 0x82, 0x22, 0xb2, 0x3e, 0x36, 0xf4,
    0x2c, 0x3e, 0x00, 0x00, 0x00, 0x00, 0xb4, 0xdd, 0x30, 0xbe,
    0x00, 0x00, 0x00, 0x00, 0x3d, 0x90, 0x24, 0xbe, 0x86, 0xb2,
    0xaa, 0xbe, 0x34, 0x63, 0x17, 0xbd, 0xc8, 0x77, 0x18, 0x3e,
    0x1a, 0x0c, 0xc6, 0x3a, 0xbf, 0x7f, 0x2d, 0xbd, 0x1b, 0xbd,
    0x87, 0xbd, 0x88, 0x81, 0x4f, 0xbd, 0x14, 0xd2, 0x34, 0xbd,
    0x35, 0x41, 0xae, 0x3e, 0x48, 0x03, 0xfd, 0x3d, 0x0c, 0x8b,
    0x77, 0xbc, 0x1e, 0x04, 0xce, 0xbe, 0x66, 0xea, 0xa5, 0x3e,
    0x42, 0x7c, 0xb1, 0xbd, 0x1f, 0x23, 0xce, 0x3d, 0xc1, 0xb2,
    0xea, 0x3d, 0x89, 0xa0, 0x92, 0x3e, 0x00, 0x00, 0x00, 0x00,
    0xaa, 0xf3, 0x55, 0xbe, 0xb1, 0x8a, 0x31, 0x3e, 0x92, 0xd9,
    0xe5, 0x3d, 0x4d, 0xf3, 0xae, 0xbe, 0x44, 0x03, 0x13, 0x3e,
    0xe9, 0xaa, 0x9e, 0xbe, 0x56, 0xee, 0x1e, 0x3e, 0x64, 0xa5,
    0x72, 0x3d, 0x2c, 0x67, 0x25, 0xbe, 0x6f, 0xa3, 0x90, 0xbe,
    0x8c, 0x7c, 0x09, 0x3d, 0x21, 0xdc, 0x00, 0xbe, 0x1b, 0x41,
    0xa4, 0xbe, 0x63, 0xfd, 0x83, 0x3e, 0x5c, 0x1f, 0xd4, 0xbe,
    0xee, 0x28, 0x7d, 0x3e, 0x57, 0x11, 0x97, 0xbe, 0xb8, 0x8a,
    0x8d, 0xbe, 0x93, 0x84, 0xc7, 0xbe, 0x8e, 0x7b, 0xd5, 0x3e,
    0x56, 0x55, 0x1b, 0x3e, 0x42, 0xe4, 0x91, 0xbe, 0xdd, 0xbf,
    0xa0, 0xbe, 0x16, 0x0c, 0xde, 0x3d, 0xf6, 0x43, 0xae, 0xbe,
    0xbe, 0xd1, 0xe5, 0xbe, 0xf6, 0x9e, 0xa6, 0xbd, 0x35, 0x3b,
    0x87, 0xbe, 0x8e, 0x82, 0x9c, 0x3e, 0xf2, 0x23, 0x02, 0xbe,
    0x8e, 0x86, 0xeb, 0xbe, 0xef, 0x4d, 0x4f, 0xbe, 0x8f, 0x4c,
    0x3f, 0xbc, 0xe4, 0x68, 0x6c, 0x3d, 0x45, 0x31, 0xad, 0x3e,
    0x3a, 0xff, 0x75, 0x3e, 0xf2, 0xbe, 0x07, 0x3e, 0x26, 0x41,
    0xd6, 0x3e, 0xf3, 0x48, 0x92, 0x3e, 0x3e, 0x4b, 0x75, 0x3e,
    0x02, 0x35, 0x8b, 0xbe, 0x20, 0x68, 0x91, 0xbe, 0xde, 0x06,
    0x1f, 0x3e, 0x12, 0xf3, 0xa9, 0x3d, 0x18, 0x2d, 0x92, 0xbd,
    0xad, 0x35, 0x53, 0xbe, 0xbc, 0x0f, 0xc1, 0x3e, 0x82, 0xe2,
    0xd1, 0x3d, 0xd5, 0xb2, 0x2b, 0x3d, 0xb2, 0x35, 0xc5, 0xbe,
    0x66, 0x34, 0xa8, 0x3e, 0xbc, 0x2d, 0x10, 0xbe, 0xc5, 0x7c,
    0x6f, 0x3d, 0xd0, 0x53, 0xe4, 0x3d, 0xf3, 0x08, 0x9b, 0x3e,
    0x7a, 0xaa, 0xd5, 0x3e, 0x75, 0x93, 0x94, 0xbc, 0xce, 0x6d,
    0x4f, 0x3e, 0x21, 0x99, 0x9f, 0xbe, 0xa3, 0xdb, 0x5d, 0xbe,
    0x74, 0x08, 0x9d, 0xbc, 0x9b, 0x5f, 0xe9, 0xbe, 0x19,
    0x15, 0xb2, 0x3e, 0xbb, 0x18, 0xc0, 0xbd, 0x85, 0x90,
    0x17, 0x3e, 0xb9, 0x7a, 0xc5, 0xbe, 0x1e, 0x28, 0xc3,
    0xbe, 0xe4, 0xed, 0x10, 0xbe, 0x2a, 0x53, 0xb7, 0x3e,
    0x9f, 0xd3, 0x5e, 0xbd, 0xa9, 0xff, 0x37, 0xbd, 0x9a,
    0xcd, 0x9f, 0xbe, 0x8f, 0x8c, 0x6d, 0xbe, 0xbd, 0x94,
    0x24, 0xbe, 0xbe, 0x40, 0xbd, 0x3e, 0x51, 0xc3, 0xfc,
    0x3e, 0xc7, 0x9c, 0x91, 0x3d, 0x7c, 0x77, 0x8b, 0xbe  };
  return AI_HANDLE_PTR(s_network_weights);
}
